[PAD]
[UNK]
[START]
[END]
!
#
$
%
&
'
(
)
*
+
,
-
.
/
0
1
2
3
4
5
6
7
8
9
:
;
=
>
?
@
[
\
]
^
_
`
a
b
c
d
e
f
g
h
i
j
k
l
m
n
o
p
q
r
s
t
u
v
w
x
y
z
©
«
°
»
ย
ร
อ
–
—
‘
’
“
”
⁄
€
♪
♫
de
que
um
uma
para
nao
se
em
os
as
do
da
com
como
nos
##s
mas
no
por
mais
na
eu
esta
muito
isso
isto
sao
me
pessoas
tem
ou
porque
quando
ao
ser
fazer
dos
ha
foi
entao
era
das
este
anos
ele
sobre
todos
temos
eles
tambem
agora
aqui
mundo
estao
minha
ver
bem
mesmo
##m
meu
podem
ter
podemos
coisas
pode
apenas
forma
depois
##mos
onde
vos
vida
sua
ate
##r
tempo
assim
vez
tudo
estava
risos
##am
voces
coisa
tinha
nossa
num
so
dizer
la
ja
##a
estamos
aplausos
##em
seu
numa
algo
ela
estas
nosso
##do
ainda
dia
nas
cada
##o
##da
vamos
hoje
tao
##mente
disse
parte
pelo
grande
estes
verdade
falar
todas
vou
portanto
pela
sem
aos
realmente
vezes
tipo
todo
qualquer
##ndo
##es
melhor
entre
historia
lo
dois
trabalho
sempre
tenho
vai
alguns
##u
pouco
quero
outra
problema
seus
outros
toda
##os
exemplo
ideia
muitas
nunca
talvez
milhoes
estou
##ia
nossos
esse
primeiro
essa
durante
muitos
maior
obrigado
##va
quem
menos
pensar
mim
tres
pais
ano
duas
outro
neste
sistema
nossas
outras
algumas
qual
antes
facto
lado
lhe
estar
importante
suas
precisamos
casa
elas
faz
##i
diferentes
nem
nova
sou
usar
dar
##l
##e
primeira
enquanto
seja
eram
mulheres
claro
informacao
criancas
criar
alguem
vao
pessoa
##das
##dos
##cao
cerebro
meus
cerca
tecnologia
tentar
foram
nada
penso
momento
sim
sabem
atraves
dados
significa
bom
volta
##n
dias
somos
acontece
quase
mesma
quer
alguma
poder
sabemos
diferente
disso
acho
agua
dentro
seria
ir
novo
numero
dificil
##nte
lhes
quanto
essas
certo
sei
10
espaco
estavam
acontecer
los
mudar
sera
palavras
##is
energia
futuro
comecar
diz
trabalhar
fazem
lugar
realidade
desta
parece
dinheiro
sido
##ta
desde
simples
havia
resposta
tal
mostrar
terra
fora
##coes
encontrar
existem
##t
##to
maneira
meio
feito
tinham
paises
bastante
questao
escola
##ra
aquilo
musica
altura
experiencia
nesta
saude
mae
mil
existe
possivel
ponto
cidade
uns
deste
##na
luz
modo
posso
homem
vossa
razao
000
ali
ai
ninguem
vemos
obrigada
video
fui
internet
pequeno
quatro
corpo
imagem
maioria
olhar
deles
queremos
saber
vosso
##te
contra
pequena
problemas
##vam
dolares
estado
caso
familia
ca
fazemos
queria
gente
construir
passado
nivel
fim
grandes
interessante
ciencia
humanos
##res
fez
simplesmente
tornar
si
aconteceu
longo
podia
##vel
funciona
homens
20
aprender
segundo
amigos
unica
acerca
aquele
humano
ajudar
historias
##sse
provavelmente
vem
cinco
esses
boa
comecei
viver
sala
ficar
poderia
voce
##d
processo
sociedade
quais
conseguem
frente
ok
facil
pai
arte
atras
conseguimos
mulher
vidas
##y
especie
real
comecamos
novas
pelos
tanto
alem
melhores
meses
querem
##as
celulas
contar
mudanca
##ar
completamente
fizemos
partir
preciso
caminho
fosse
##no
grupo
muita
perceber
##ca
##ntes
algum
comunidade
guerra
las
formas
imagens
##ei
local
medo
milhares
causa
africa
horas
chamado
computador
estados
fiz
noite
carro
sentido
##io
empresas
faze
global
minhas
pergunta
universo
aquela
destas
filhos
tinhamos
veem
ajuda
social
passar
100
chegar
projeto
30
enorme
imaginem
baixo
economia
termos
##co
livro
tive
aqueles
ar
comida
palavra
modelo
tarde
cidades
mao
te
torna
50
carros
destes
doenca
ideias
inicio
rede
natureza
olhos
chama
eua
##dor
##ro
papel
tamanho
pensamos
dizem
seguranca
ambiente
crianca
deixar
planeta
certa
pensem
sabe
proprio
sociais
##mo
politica
teve
tipos
deixem
dela
dele
desenvolvimento
estavamos
sabia
seguir
violencia
comecou
governo
##idade
cima
comeca
humana
relacao
voz
##tar
educacao
##ao
adn
jovens
seis
conjunto
pensei
propria
##sa
chamada
valor
##ma
nome
seculo
segunda
visao
empresa
voltar
animais
confianca
delas
media
ora
compreender
populacao
base
conhecimento
disto
mal
vi
##ria
medida
ultimos
##iam
locais
ve
##h
diferenca
juntos
matematica
ouvir
professores
sucesso
trata
unidos
minutos
##la
capacidade
descobrir
deus
ia
levar
maiores
mundial
##dores
centenas
ira
pequenos
serem
tornou
##ssem
##tica
15
cabeca
hora
idade
publico
basicamente
gostaria
oportunidade
situacao
vossos
apos
conta
deve
final
finalmente
nenhum
perto
semana
unico
comigo
cultura
irao
pelas
sentir
som
campo
escrever
forca
numeros
precisam
apesar
atencao
houve
incrivel
seguinte
area
cancro
colocar
escala
##0
##ica
entanto
imaginar
tecnologias
livros
longe
natural
resolver
##veis
china
rapidamente
umas
##tiva
conseguir
nenhuma
partilhar
passa
pontos
sair
ted
usando
disseram
redes
ultima
crescimento
doencas
estudantes
oh
vista
##ico
##z
comum
devido
importantes
linha
##tico
acredito
equipa
fizeram
manter
risco
sistemas
##gem
##tas
encontramos
estrutura
ferramentas
novos
precisa
cento
solucao
totalmente
vejam
##so
alunos
controlo
movimento
semanas
##ce
estudo
norte
sejam
serie
ultimo
carbono
certeza
comportamento
ler
questoes
##c
areas
dessa
experiencias
##ram
amor
devem
for
mesmos
morte
resultado
sol
amigo
maquina
mente
padroes
quantidade
quao
resultados
tivemos
universidade
##rio
aprendi
computadores
dessas
nessa
passo
varias
acesso
demasiado
europa
filho
leva
obter
parar
perguntas
##er
capaz
design
impacto
nisso
passe
noticias
perguntar
viagem
america
chamamos
comecaram
cor
desafio
direito
fundo
iria
partes
pesquisa
suficiente
##ado
##mento
descobrimos
direitos
embora
iorque
normal
proprios
sob
sul
centro
consigo
ensino
industria
usa
capazes
exatamente
fisica
laboratorio
mensagem
nisto
procura
resto
cientistas
consegue
devemos
grupos
india
metade
continuar
escolas
##ida
fiquei
neuronios
pensam
permite
possam
##tos
40
aula
boas
jovem
sangue
visto
funcionar
lidar
mudou
pequenas
sequer
seres
teria
nesse
pois
rua
##g
##lo
##on
entrar
google
esperanca
lugares
pessoal
proximo
usamos
##ido
aprendizagem
colegas
contrario
especies
gosto
medico
oito
##ios
##ir
##p
##se
25
criamos
ensinar
explicar
linguagem
maos
melhorar
naquele
online
pobres
professor
sete
teoria
fotos
lingua
mercado
novamente
##de
##ras
fotografia
levou
nuclear
##nas
60
aumentar
digo
fazia
podiam
vejo
##cia
##tivo
sexo
sociedades
##ou
##ve
acabar
alta
crescer
custo
espero
faco
familias
liberdade
mostra
revolucao
##ga
##ista
##ncia
petroleo
podiamos
sonho
usam
uso
especial
geral
podera
primeiros
relacoes
tenha
tivesse
tras
90
desse
efeito
malaria
normalmente
palestra
recentemente
##le
##nca
bons
chave
consciencia
conseguia
democracia
doentes
material
obviamente
particular
programa
terem
tirar
80
andar
animal
caixa
coracao
edificios
fantastico
fica
haver
mar
medicos
miudos
pedir
produtos
proxima
recursos
regras
##2
##nia
adoro
digital
fomos
humanidade
instituicoes
ligacao
sitio
tenham
errado
falamos
materiais
poderiamos
possamos
superficie
##izar
##ssemos
aquelas
conversa
especialmente
esquerda
ficam
genes
medio
pegar
pior
producao
razoes
tomar
##k
##ne
dor
logo
posicao
principal
repente
velocidade
vivemos
##go
comprar
naquela
procurar
sinto
##emos
##ns
cara
comer
exemplos
lideres
mapa
modelos
total
tu
##car
##re
##tes
70
avo
codigo
desejo
deu
espera
proprias
##ina
##tado
ambos
continua
correr
entender
geracao
metros
negocio
possa
vivem
##rem
assunto
comunicacao
desenvolver
mental
plano
respostas
teste
##nos
casas
casos
crise
ficou
forte
organizacao
pagar
qualidade
rapido
##8
alto
comunidades
encontrei
estrada
falta
floresta
foto
frequentemente
ingles
massa
presente
projecto
veio
vimos
##nda
##ste
##ter
celula
estudar
estudos
incrivelmente
mau
necessario
porta
acordo
custos
distancia
escolha
estive
feita
filme
nacional
topo
##4
##x
abaixo
absolutamente
camara
economico
edificio
estranho
favor
inovacao
lei
literalmente
negocios
senti
via
virus
##gar
##rar
##us
central
duma
lembro
manha
medicina
publica
serao
transformar
varios
verdadeira
##ados
##cas
##cional
desses
epoca
governos
investigacao
marca
mudancas
responder
vir
##nto
##ticos
abelhas
biologia
comecam
feliz
fisico
infelizmente
km
materia
parecer
poderiam
prazo
preco
11
aprendemos
cadeia
cerebros
compaixao
evolucao
importa
interior
maneiras
objetivo
parecem
proximos
raparigas
sensacao
servicos
sinal
vivo
##izado
##ros
##tura
deixa
doente
eis
jogo
mesmas
pobreza
politicos
quarto
tecido
terceiro
##3
##ias
##ira
##nta
##vamos
abordagem
conceito
construcao
daqui
decada
erro
exactamente
grafico
passou
percebi
salvar
solar
##ck
##istas
##que
abrir
cuidados
funcionam
fundamental
ouvi
produto
##izacao
##tem
17
chegou
cidadaos
decidi
deveria
devia
direita
esperar
feitos
inteiro
olhamos
parede
periodo
produzir
quantos
ruas
superior
trazer
##sos
azul
certamente
cria
descobri
facebook
imediatamente
lembrar
mes
muda
museu
olharem
padrao
pena
sentimento
200
acima
baixa
hospital
lista
oceano
palco
policia
potencial
presidente
taxa
tiveram
tratamento
##ento
##iamos
##imos
##lar
12
acreditar
arvores
complexo
documentos
fossem
livre
necessidade
politicas
poucos
semelhante
sinais
verao
verdadeiramente
##7
##tei
ceu
chegamos
emprego
fonte
gps
milhao
nove
parque
peso
sendo
verde
##5
##cos
##ismo
##pe
americanos
artista
branco
conduzir
decadas
enviar
escolher
extremamente
individuos
lutar
membros
nestas
pagina
passei
paz
pudesse
sorte
vossas
##cer
##tam
capital
chamo
condicoes
debaixo
direcao
mantem
memoria
observar
particulas
regiao
telemovel
tornam
##or
##tada
##tido
auto
bilioes
carvao
cedo
chao
convosco
decisao
depressa
descoberta
efeitos
forem
frase
gas
gostam
impossivel
leis
ligar
morrer
olhem
olho
parecia
pele
perguntei
seda
web
##ada
##ente
##in
##tivos
aplicacao
curso
decisoes
diria
fala
igual
maquinas
pensamento
perder
povo
pratica
quiserem
religiao
sai
tema
tempos
vitimas
##nho
13
18
alimentar
aulas
cirurgia
contexto
danca
erros
hipotese
juntar
meios
paixao
permitir
reconhecer
seguro
the
tocar
verdadeiro
##6
##b
##ba
##vo
acabou
bebe
connosco
decidimos
espacos
filha
mercados
nestes
quantas
querer
serio
sermos
##1
##ivo
##tivas
armas
atualmente
buraco
campanha
claramente
conhecemos
daquele
elementos
falam
felizes
funcao
importancia
informacoes
linhas
oriente
poderao
queriam
queriamos
software
solucoes
sons
tua
valores
viram
vontade
##izada
##nha
##w
acham
chamar
chega
conheci
creio
criacao
estrelas
estruturas
explorar
factos
genoma
inteligente
pao
pedaco
pensa
rio
tornaram
transporte
usado
visual
##f
##sem
##ura
afeganistao
complexidade
controlar
dizia
ecra
facam
lua
luta
moleculas
mover
oportunidades
peca
perspetiva
prisao
quilometros
rapaz
riscos
ritmo
robo
segundos
sentem
super
surpreendente
tantas
zero
##acao
##cionais
##ha
alcancar
conhecer
construimos
encontra
estiverem
estivesse
ganhar
mesa
particularmente
poderemos
poderoso
possibilidade
rapariga
reino
significado
sobreviver
tido
trabalhadores
utilizar
vindo
##9
##che
##ing
##nar
##sas
##tados
##tou
americana
apoio
aumento
diferencas
fogo
genero
incluindo
inteligencia
interessantes
mensagens
momentos
proposito
quimica
tentamos
terceira
viu
##en
##icos
##jo
certas
dito
eramos
esteja
estradas
humanas
interesse
justica
niveis
ola
pares
passamos
permitem
receber
responsabilidade
##idas
##rios
comeco
conseguiu
dai
dao
faca
felicidade
insectos
linguas
medicamentos
negro
pe
principio
proteger
respeito
sentia
teriam
usada
##amos
##dora
##ular
24
500
afinal
agir
aldeia
aspeto
brincar
cientifica
contudo
depressao
desafios
encontro
es
expressao
fazerem
forcas
gelo
gostava
investimento
notas
perfeito
profissionais
setembro
silencio
versao
zona
##al
##an
##icas
##las
analise
barato
carne
carta
chris
cola
conselho
criatividade
deixou
enormes
esforco
exercito
fe
florestas
idosos
motor
olharmos
origem
perda
poucas
programas
tratar
##adas
##ie
300
bocado
buracos
dado
deviamos
dificeis
espirito
evitar
ferramenta
fortes
geralmente
inteligentes
matar
negros
opiniao
pecas
ratos
reparem
tanta
terminar
util
##nado
##nde
14
adolescentes
antiga
aparecer
areia
artistas
aspecto
audiencia
beleza
conhecem
considerar
dez
epidemia
essencialmente
estrela
exterior
higgs
incriveis
iremos
ma
objeto
pensava
sentimos
sitios
tendencia
teremos
velho
##bilidade
##iro
##iva
##izados
##man
##mas
##ri
##tamos
americano
arabe
bola
costa
cuidado
dentes
entra
excelente
medir
metodo
minuto
ouvido
pes
pressao
rapida
reais
representa
sentimentos
solo
tendo
##amento
##gens
##ito
##iu
##logia
##oes
##ver
agricultores
coloca
comunicar
comuns
consumo
depende
dispositivo
eleicoes
encontram
escrita
eventualmente
fabrica
ficamos
formacao
fotografias
individuais
longa
noticia
ordem
otimo
provavel
publicos
servico
tantos
teu
##ch
##grafia
##ita
##me
##tida
aberto
acreditam
alterar
banco
busca
calor
chuva
combustivel
compreensao
disponivel
fazendo
felizmente
fenomeno
ficaram
interessa
irmao
lixo
marido
pernas
primeiras
protecao
redor
robos
tarefa
tecnicas
terrivel
trabalhos
twitter
vento
voar
##bo
##ificar
##indo
##rada
16
antigo
bebes
brasil
carreira
cheguei
cheia
conhecido
conseguirmos
contas
drogas
gene
imaginacao
internacional
lados
licao
maravilhoso
pacientes
poderosa
precisao
precisava
prova
quente
responsavel
sabiam
stress
suficientemente
teriamos
videos
vozes
##ts
algures
bacterias
banho
barulho
bomba
brilhante
cadeira
california
cientista
civil
companhia
consegui
conteudo
daquela
devo
direccao
enfrentar
escolhas
escreveu
etc
feitas
graus
john
lembrem
medica
meia
microbios
moda
nocao
obra
organizacoes
plantas
prazer
recente
sabiamos
sequencia
sustentavel
temperatura
terao
terreno
testes
unidade
vacinas
##gue
##inho
##iza
##ja
##ton
##torio
##tro
##ula
acabei
acaso
altamente
apresentar
ataque
aumenta
cabelo
cem
certos
dei
descobriram
detras
deviam
engenharia
escrito
gostamos
gracas
identidade
individuo
israel
limite
magia
menor
normais
obtemos
ouro
ouvimos
perigo
ponte
principais
profunda
pronto
rato
rei
telefone
televisao
testar
tradicionais
tradicional
transforma
vidro
voltei
##cio
##ng
acabamos
agricultura
analisar
aranha
cabo
camada
cancao
casamento
contem
cores
damos
dezenas
eficaz
essencial
fixe
invisivel
kg
missao
naturais
oxitocina
par
partilha
passam
podermos
politico
pos
principios
projetos
radio
reconstruir
riqueza
salas
senhor
tera
treino
unido
va
vermelho
##izadas
##ticas
3d
amostras
aplicacoes
arma
avancar
blocos
clientes
conflitos
definicao
diga
dispositivos
errada
espacial
expansao
facilmente
familiar
formar
frases
frequencia
impressao
irma
londres
mostram
olha
paginas
perguntou
seriam
tenhamos
tens
tentei
toca
vive
##nes
##tacao
##tia
##ua
aberta
aceitar
anterior
apareceu
arquitetura
arranjar
big
cama
cartas
chines
conflito
consequencias
corpos
desenhar
deveriamos
disponiveis
emocoes
entropia
estejam
frio
havera
ignorancia
instituicao
juntamente
mortes
passaram
pensarem
poupar
recebe
rendimento
rodas
rosto
sms
somente
telemoveis
tivessem
transito
vale
viajar
virtual
##ge
##ho
##ler
##ti
2000
achamos
alimentos
alvo
aparece
atmosfera
bairro
bang
baseado
cair
chamam
comportamentos
constantemente
debate
demais
digamos
duvida
ei
estilo
filmes
franca
gestao
iraque
juntas
limites
mosquitos
obvio
ondas
orgaos
original
possibilidades
praticamente
pre
premio
profundamente
profundo
relativamente
reputacao
substituir
tecnica
terrorismo
tv
virem
##ccao
##lado
##los
##rado
##rias
##ry
##uo
##za
2008
acao
arvore
batalha
beneficios
bla
cientifico
cozinhar
criaram
criou
dizemos
einstein
elemento
eletricidade
emocional
esquerdo
exploracao
extraordinario
face
fantastica
fase
fome
investir
ligacoes
luzes
miudo
mudaram
nacoes
necessidades
opcoes
pedacos
planetas
preocupar
privacidade
pudessem
reduzir
registo
semelhantes
texto
traz
xx
##cula
##der
##el
##gada
##ley
##nados
andava
apanhar
atingir
autor
cegos
clara
complexos
continuam
equipamento
espantoso
faculdade
galaxias
gripe
hospitais
japao
marte
montanha
monte
objecto
ocidental
paredes
peixe
pib
poesia
proteinas
sobretudo
sr
tecidos
tom
toneladas
velhos
##cada
##cto
##gica
##idos
##ificacao
##itar
##ite
##ntar
##oso
##rei
##tadas
accao
alegria
alma
alteracoes
ameaca
braco
breve
canada
caro
cheio
climaticas
complicado
conferencia
consumidores
conversas
cultural
daquilo
decidir
dedos
defender
descobriu
descrever
destruicao
dificuldades
digitais
discurso
dissemos
divertido
empregos
escuro
esperamos
estranhos
extraordinaria
fascinante
fisicos
fundamentais
influencia
iriam
libertar
liga
militar
moderna
molecula
morreu
nacao
natal
nomes
opcao
participar
preto
programar
provar
religioes
rendimentos
sabes
secundario
sexual
tentativa
tiverem
tumor
visitar
##dade
##eiro
##mentos
##pa
##sta
##tra
1000
2010
adicionar
aparelho
apercebi
artificial
aviao
bloco
canto
caracteristicas
circulo
cortar
criado
culturas
custa
detalhes
diretamente
distribuicao
faziam
feira
fizermos
fronteiras
genetica
militares
mortalidade
necessaria
nota
obras
ouvidos
perspectiva
pintura
plataforma
ponta
pudessemos
seguros
sozinho
termo
veiculo
vender
vergonha
##00
##des
##gado
##sivo
150
acreditamos
afastar
ajudam
aniversario
australia
boca
campos
ciro
colega
conforme
construido
cresci
dimensoes
economias
eixo
electricidade
envelhecimento
envolver
explosao
fontes
geracoes
iam
imprensa
interesses
mexico
negra
nela
oferecer
paris
possiveis
preparar
propriedade
quadro
quenia
quis
quisermos
saudavel
segura
sonhos
sugerir
surpresa
torno
trabalhei
volume
##bra
##cam
##im
##inha
##nal
##nio
##ntos
##por
##rmos
##sao
##th
##um
##via
acaba
bairros
baixos
bela
bens
clima
coca
comentarios
completa
contacto
deram
desenho
deveriam
emissoes
escrevi
escura
excremento
existencia
igualdade
individual
industrial
infantil
inteira
janela
lembram
ligeiramente
marketing
maximo
motivo
nele
objetos
oposto
perigoso
podes
prestes
radiacao
recuperar
resistencia
roupa
saida
sombra
subir
tornei
trabalham
vais
vizinhos
##gam
##lia
##mar
##ntado
##rados
##rico
##tal
##v
acidente
acoes
ah
alemanha
angeles
aprendem
aproximadamente
artigo
ataques
bracos
cenario
compromisso
conclusao
dialogo
diziam
dr
empatia
engenheiros
equilibrio
equivalente
estacao
euros
existia
existir
familiares
fico
infancia
jardim
mecanica
mentes
mortos
nuvem
oceanos
olhando
passos
peco
perante
prever
processos
progresso
queres
rapazes
recebem
recolher
revista
site
surge
tarefas
transformacao
trouxe
ultrapassar
universal
usou
vejamos
verdes
vieram
##cido
##doras
##eira
##fica
##gas
##gia
##gio
##gou
##iros
##ramos
##semos
aluno
amostra
asia
atravessar
bretanha
capacidades
causar
ciencias
civilizacao
classe
climatica
colocamos
companhias
confiar
constante
corrente
costumava
crispr
cuidar
cura
curto
desculpa
desempenho
diversidade
domestica
economica
escritorio
especialistas
estudante
expandir
explicacao
fundacao
gra
haiti
ilusao
imenso
maes
marco
metro
moderno
moral
morreram
morto
narrativa
naturalmente
nessas
nesses
ouviram
parecido
pensarmos
perdido
perfeitamente
pintar
pobre
praticas
realizar
saudaveis
sobrevivencia
tivessemos
transicao
uau
uteis
viva
##ais
##jar
##ndia
##quei
##var
2009
2011
21
adultos
almoco
alternativa
antigos
atomos
baseada
basta
bocadinho
cafe
chip
comprimento
decidiram
deixamos
descobertas
diante
eficiente
estiver
fundos
gastar
haja
jogos
membro
misterio
objectivo
ocidente
paisagem
pedra
percebem
permitiu
presos
principalmente
quimicos
recebi
reparar
sofrimento
tenta
tiver
ultimas
veiculos
votar
youtube
##ando
##ante
##cida
##enta
##idades
##mica
##uais
##ue
400
acelerar
alcance
amanha
apoiar
atividade
atual
bonito
calculo
comercial
cortex
curiosidade
desaparecer
destino
discussao
economicos
enfrentamos
engano
esposa
estrategia
fato
focar
iguais
instrumentos
interagir
janelas
jogar
li
madeira
maravilhosa
nasceu
nervoso
new
passaros
pegamos
perdemos
perfeita
pessoais
poderem
precisar
primo
quiser
raio
reacao
segredo
seguida
soa
sozinhos
trabalhamos
transmitir
usadas
usados
utilizadores
vantagem
variedade
vazio
washington
##bia
##bre
##cado
##di
##itos
##ivos
##ke
##lho
##nhas
##nica
##nico
##ntou
##sei
##son
##tais
##tidas
##toria
aconteca
acontecido
aparelhos
aparentemente
aspectos
aspetos
assistir
avaliacao
cartoes
cena
chamou
ciclo
coragem
criam
curva
daqueles
deserto
designers
eficiencia
essencia
estaria
estranha
extra
falando
falhar
fronteira
funcoes
grave
gritar
guerras
hotel
identificar
independentemente
intestino
loja
maus
microscopio
nasci
noites
notavel
objectos
piada
planos
potencia
pouca
privado
propriedades
provas
quadrado
queda
ricos
seguintes
sofrer
tivermos
variacao
viagens
##cha
##cou
##et
##gico
##ide
##inas
##rais
##ral
##siva
##tor
##vido
abrigo
acha
ajudou
aquecimento
barata
bater
bg
canal
cavalo
centros
chefe
chegaram
chorar
circunstancias
combustiveis
comercio
completo
complexa
componentes
conectoma
conheco
continuamos
cordas
crenca
criminosos
decidiu
desenvolvemos
dizendo
ecossistema
egito
elevado
especifico
exposicao
falo
faria
fatores
gerir
globais
imensa
interessados
irmaos
jantar
le
lentamente
lider
mecanismo
metodos
mostrei
necessarios
nervos
onda
paciente
palestras
passada
pedi
pensamentos
popular
refugiados
relacionadas
sapatos
suposto
terco
tradicao
uniao
vermelha
virar
voto
##ccoes
##gacao
##lha
##lidade
##nhos
##reta
##uda
##ui
##uta
##vida
##zes
75
abertos
actualmente
africanos
alzheimer
ambientes
aplicar
ato
automovel
barco
beber
bicicleta
botao
brancos
caixas
camadas
cancoes
condutor
criei
critica
danos
data
desenvolvido
dolar
dormir
droga
entrou
espalhar
especificamente
esqueleto
evento
falsos
fazermos
ficcao
formam
fosseis
fracasso
funcionou
gravidade
herois
hipoteses
horrivel
igualmente
inferior
inspiracao
inventar
levantar
ligado
ligados
literatura
medicamento
memorias
menina
mentais
mentir
partido
peixes
pergunto
poderosos
precisavamos
proteina
regressar
retirar
serve
tensao
tinta
visivel
vivos
wk
##30
##be
##cimento
##dia
##dicar
##ers
##hos
##izamos
##lada
##logo
##nada
##nder
##para
##rido
##ual
##ulacao
acabado
acreditem
acto
africano
altas
anda
anderson
antigas
aplica
assustador
atacar
aves
babbage
caminhar
cantar
cao
chamava
comparacao
construida
convencer
crime
critico
diagnostico
dum
encontraram
esteve
estiveram
europeia
fibras
ficava
fio
flores
francisco
gato
gerar
indo
janeiro
jornal
jornalista
leve
licoes
lindo
livres
logica
mit
moeda
mortas
mostrou
mudam
mundiais
noutros
olham
ossos
penis
personalidade
porem
produz
quinta
reconhecimento
reforma
representam
resolucao
richard
sentado
sida
sopa
surgiu
tais
transparencia
tratamentos
troca
tuberculose
utilizacao
verem
website
zumbido
##cencia
##ces
##cioso
##cta
##cular
##culo
##dicao
##eiras
##har
##iente
##inos
##ncas
##nce
##nham
##nista
##rando
##tidos
##vio
##xo
##ze
19
27
acabam
acabaram
acessivel
algoritmo
alteracao
altos
aproximar
arquitectura
barreiras
basica
bill
calculos
caos
cerebral
chamadas
chegam
cheiro
complexas
corte
criativo
dificuldade
discutir
divisao
estarem
exceto
fios
fundamentalmente
garantir
gigante
gostar
harvard
industrias
inveja
james
letras
levam
medidas
motores
necessariamente
observamos
paquistao
passava
percecao
percentagem
perdeu
perdi
pessoalmente
precos
presentes
probabilidade
pudermos
raiva
raramente
repetir
retorno
rica
rosa
sintomas
situacoes
tendem
tendencias
terramoto
ti
transportes
treinar
triste
unidades
visuais
vitima
vivas
voltou
##bi
##cial
##citar
##ino
##iras
##ncial
##nicos
##pia
##po
##posto
##rida
##til
##uma
##uto
actual
afirmacao
amiga
andam
belo
biblioteca
bolas
bombas
brilhantes
buscar
colapso
corais
corre
corrida
couro
cursos
deixei
desastre
dimensao
diminuir
escutar
especiais
especialista
esperava
estatistica
extrair
fariam
fluxo
fornecer
fugir
gana
ganha
ganho
honra
houvesse
imigrantes
instrucoes
investigadores
irem
latina
leite
lideranca
meninas
movimentos
nobel
olhou
participacao
partilhamos
pensaram
percebemos
personagens
planta
precisamente
professora
promessa
prosperidade
prostata
recompensa
regra
relevante
requer
saiu
seculos
sente
toque
tornamos
vacina
verdadeiros
##ci
##ciar
##ciosas
##encia
##il
##lina
##ly
##nais
##nhada
##nismo
##radas
##rao
##rir
##roes
##timos
##tismo
##ude
##uro
2012
22
al
anti
aproveitar
aranhas
bacteria
barreira
bigode
bonita
britanico
cai
calhar
carregar
cartao
cinema
cirurgiao
ciume
coco
condicao
consciente
conseguiram
consequencia
construi
continuo
correto
criando
criaturas
dada
departamento
destruir
dignidade
duplo
ecologica
elevada
entrada
esconder
evoluir
existiam
explica
fabricas
flor
folhas
funcionarios
gratis
haveria
implicacoes
incerteza
infraestrutura
inglaterra
injustica
inves
investidores
investigar
junta
junto
laboratorios
legal
leitura
lembra
leste
longas
mapas
marcas
minimo
muculmanos
noutro
organismos
passagem
pensou
percorrer
percurso
porco
positiva
positivo
prontos
publicidade
pude
quantica
questionar
raca
recebemos
responsaveis
saneamento
seccao
senao
sentados
sozinha
terapia
terroristas
tio
tribunal
unicos
##bio
##cionar
##dido
##ea
##entos
##gos
##ham
##iar
##ins
##ivel
##jam
##les
##lhe
##ls
##mi
##nd
##nei
##ota
##rava
##ridos
##tando
##tente
##tion
##tre
##tt
##turas
23
35
abertura
abordar
achei
agarrar
agulha
algoritmos
amazonia
amo
aparecem
aprende
artigos
cabecas
caiu
cilindro
colocou
combinacao
cometa
competicao
compras
computacao
concluir
conhecida
conseguirem
considerado
cozinha
cresceu
criada
daquelas
deficiencia
demos
digam
dinamica
disturbios
eficazes
elefante
envolve
esforcos
estabelecer
falei
fantasticas
femea
festa
fibra
fila
fisicamente
formos
ganhou
gasolina
gostariamos
igreja
instalacoes
interna
letra
ligada
limpa
louca
mamiferos
matematico
mentiras
modernos
molecular
morrem
move
necessarias
neuronio
nucleares
painel
parceiros
pareceu
pedimos
percebe
pista
pistas
populacoes
porcento
portas
povos
procuramos
produtividade
projectos
prototipo
recentes
recuperacao
recurso
representacao
representar
respondeu
rico
robotica
roda
sabedoria
simbolo
sites
sugere
thomas
toma
truque
unidas
universos
veremos
vih
visita
xxi
##berg
##dir
##eco
##fa
##fi
##fo
##ila
##inado
##izacoes
##lhem
##lin
##lmente
##mico
##ndas
##ores
##stas
##tao
##tivar
##torios
##ulas
##ves
45
aco
administracao
amar
amarelo
anteriormente
apple
arco
assuntos
avaliar
banda
bolso
branca
calcular
camaras
caminhos
capitalismo
casar
causas
colonia
comem
competencias
componente
compreendemos
conhecidos
continente
contrato
corrigir
criativa
cujo
deixam
deixaram
demora
diariamente
dose
eficacia
eliminar
envolvidos
escaravelho
estarao
estatisticas
exames
exito
experimentar
financeira
futebol
gabinete
galaxia
gosta
imensas
impedir
instante
interessado
iphone
junho
lancar
lar
leonardo
ligam
limpo
louco
metafora
mexer
ministro
montes
nanopatch
naqueles
navios
observacao
ocorre
ocorreu
ontem
operacao
operar
originais
oxigenio
pareca
pedido
pensado
pensavam
perceberam
perguntam
perna
plantar
plastico
pm
po
poderosas
poema
programacao
proximas
refere
rurais
sementes
separacao
significava
sono
suficientes
teatro
tentam
tentando
titulo
trabalhava
veteranos
vira
vivia
voluntarios
voo
xix
##ador
##aram
##by
##centes
##cidade
##damente
##dar
##dem
##dida
##ger
##gicos
##gues
##imo
##iveis
##izam
##land
##lica
##nco
##ndam
##ner
##ntada
##osa
##plicar
##riam
##rizar
##rna
##soes
##tivamente
##tizar
##tracao
##tual
##uacao
##uar
##udo
##urar
##vos
##zar
2001
2007
2050
abrandar
acontecem
agencias
agentes
apartamento
apresentacao
arabes
argumento
aumentou
automoveis
basico
cabos
cardiaco
centimos
centrais
chamaram
choque
colaboracao
consegues
cresce
crucial
defesa
descoberto
desconhecido
desistir
desperdicio
directamente
edi
eficientes
email
empreendedores
entendem
entram
envia
esperem
estivessem
eventos
exercicio
expressoes
extraordinarias
faceis
famoso
george
globalizacao
grau
guia
historico
idosas
ilha
ilhas
informaticos
inovacoes
invisiveis
irei
jornalistas
juntam
larga
levado
mail
manhattan
maravilha
melhoria
menino
mentira
michael
micro
microfone
movembro
nutrientes
oeste
olhei
parques
partilhada
pediu
percepcao
perguntamos
pinturas
piores
plateia
potencialmente
poupancas
preparados
presa
previsao
primos
prioridade
profundas
proposta
publicas
radical
raios
recebeu
remover
rir
rostos
salto
seca
senhora
sentidos
sexta
sexuais
simbolos
sofrem
soma
surgiram
sustentabilidade
telescopio
times
tirada
tirei
tridimensional
universidades
utilizador
velha
velhas
vulneraveis
##acoes
##ata
##cente
##cho
##dura
##ecer
##ela
##ena
##ey
##gador
##hada
##icoes
##inhos
##jamos
##ka
##lagem
##ll
##logista
##logos
##nadas
##ndida
##nhado
##nidade
##nistas
##nou
##racao
##rd
##rda
##tina
##trada
##uras
achava
acontecimento
acredita
acreditava
adolescente
ajudaram
ambas
ameacas
americanas
anteriores
autocarro
bases
biliao
bolha
caes
cambridge
caras
categoria
cego
chicago
cidadao
combater
comecemos
concentrar
conducao
conexoes
conseguiam
continuava
corporal
corrupcao
costumavam
credito
curar
david
descer
determinado
diretor
documento
efetivamente
eleicao
epidemias
escolar
escolhemos
estabilidade
estaminais
estarmos
estudio
excelentes
excitante
extrema
extremo
fa
falso
ficarem
fizer
fizesse
flexivel
foco
francamente
frances
frank
fusao
guarda
ideal
ignorar
ilegal
imensos
imigracao
informatica
instalacao
intelectual
intervencao
inventou
irmas
judeus
justo
liceu
ligadas
limitacoes
localizacao
loucura
magico
mala
mama
mapear
matematicos
mudamos
musical
negras
noutras
obesidade
odio
operacoes
orgao
orgulho
passados
personagem
placa
polo
possivelmente
possuem
praia
preso
primavera
pudemos
receitas
reducao
reparacao
resulta
retina
revelar
ruanda
rural
saem
sanita
seguras
sejamos
sentar
siria
soube
suicidio
surgir
tecnico
tecnologica
terriveis
tesla
tijolos
tiramos
tornado
tornarem
trabalha
transferencia
transformou
usaram
vantagens
verificar
violenta
voltamos
##bios
##cacao
##cal
##camos
##ciona
##didos
##ece
##eis
##eta
##ficiente
##gido
##gir
##ibilidade
##itam
##izou
##leta
##lico
##ney
##ntei
##ologia
##par
##pos
##ps
##quece
##rdo
##rou
##rto
##ssoes
##tador
##timo
##vacao
##vem
##zi
2015
acessiveis
acontecimentos
afeta
altera
antepassados
apelo
apontar
aprenderam
arroz
artes
assumir
ativos
autocarros
cadeiras
camioes
capita
captar
carga
ceus
chamados
chineses
circuitos
clareza
clinica
clinicos
clique
cognitivo
comentario
complicada
considero
consiste
conto
contribuir
correio
demonstracao
desenhos
devagar
dieta
dioxido
dispostos
distante
dominio
donos
dou
doutoramento
economicas
ecossistemas
emergencia
empregados
encontrado
energetica
ensina
ensinou
errados
escritorios
escuridao
espantosa
estariam
etiopia
excesso
exercicios
explicou
factores
ferias
financeiro
funcional
funcione
ganham
geneticas
genomas
gordura
graca
havido
incentivos
inevitavel
inicialmente
invencao
jeopardy
julgamento
lavar
levantem
levaram
limpar
luxo
medula
metal
mistura
morcegos
mostramos
motivacao
mudei
multiverso
mundos
naquilo
nelas
noutra
obstaculos
ocasionalmente
olhemos
organizar
paineis
parou
partida
partilhado
patente
paul
pega
per
perdida
poeta
poupanca
precisavam
preocupa
preocupacao
preocupacoes
privilegio
produzem
profissional
pura
quaisquer
quantidades
rapidos
referencia
renovaveis
resultou
reunir
romance
roubar
ruido
satelites
saudita
senhores
sensor
sensores
serra
street
sujeito
suporte
tony
tradicoes
traducao
tragedia
truques
usei
vencer
vendas
vistos
york
##ach
##ay
##bilizar
##bracao
##cionada
##cionado
##cionou
##ctos
##entado
##feito
##ial
##ima
##it
##itas
##li
##metro
##micos
##my
##ndem
##nt
##ntamos
##ntemente
##param
##riar
##rs
##tava
##tavel
##teiro
##ticamente
##ute
##vidas
2004
2005
36
abre
abundancia
aconteceria
adiante
adopcao
adorava
agradavel
alimentacao
alimento
alternativas
alvos
anatomia
apaixonada
apareceram
aparencia
apresenta
associacao
audio
avanco
avioes
baratos
bitcoin
caros
cegueira
chips
cimento
cirurgioes
clube
co2
comecarmos
comedia
comemos
competir
conceitos
confusao
conhece
conhecia
conhecimentos
construidas
contamos
conversar
copia
correcta
correu
costas
crencas
criadores
curriculo
deixe
demorou
detalhe
detetar
diarreia
doloroso
dupla
economistas
efectivamente
eletronica
energias
ensinam
entrei
entrevista
entusiasmado
equacao
escritos
especifica
esquizofrenia
estacoes
estivemos
estrategias
estudei
evidencias
extensao
falsa
feedback
gastamos
gratidao
horizonte
impressionante
incapacidade
incluir
inspirar
instituto
interface
inverno
lago
lancamento
lancamos
lancou
literacia
lojas
loucos
maravilhosas
mo
morta
mt
nariz
nasa
nascimento
navegar
novidade
obtem
paga
paradoxo
patentes
pato
pediram
pedras
permanente
pico
pontuacao
porcos
posicoes
potavel
presenca
prisioneiros
quantico
quartos
quimico
raizes
recem
regresso
reinventar
relatorio
resistir
respiracao
riso
saltar
scratch
segue
senhoras
sentada
sentirem
sequencias
seremos
servir
talento
taxas
tentaram
tento
teus
textos
topico
trocar
tropicais
tunel
turma
urbano
vasto
verdadeiras
vermelhos
viam
vigilancia
visualizar
voltando
wall
world
##amente
##ativa
##bem
##brar
##cem
##dencia
##ds
##ear
##ed
##entacao
##ft
##guem
##ivas
##lan
##ld
##let
##logica
##mia
##midade
##nam
##neo
##nhamos
##ntam
##ntro
##ola
##one
##rial
##sivamente
##taveis
##tero
##tividade
##ulado
##ume
##ure
##vado
##vas
##vi
250
26
abelha
aceder
achar
actuais
adoramos
alias
angulo
apercebeu
aplauso
ascensao
atitude
automatica
avancada
avos
baixar
bancos
chinesa
civis
clicar
colaboradores
combinar
comecado
congo
contou
cultivar
deitar
demorar
descricao
desenhado
desporto
determinar
diametro
diaria
difusao
distinguir
diversas
dobro
dores
duzia
ecologia
egipcios
eleitores
emergentes
encontrou
entramos
entretanto
escultura
espetacular
esquecer
excepto
existentes
fabricantes
falha
financeiros
fiquem
formato
fossemos
foxo
gates
guardar
identicas
infraestruturas
inicial
iniciativa
instrumento
intensidade
interacao
internacionais
jornada
jornais
juventude
liguei
line
lucros
manipular
mergulho
metano
mostrado
motivos
moveis
multidao
neles
nelson
netos
oferece
optimo
organismo
ouve
paciencia
park
parkinson
particula
peguei
perde
perderam
planear
preconceitos
presas
primatas
processamento
processar
profissao
propaganda
proporcionar
publicar
quadrados
quarta
rabiscar
raiz
receita
responde
restaurante
rios
rm
rocha
roupas
russia
sabendo
saibam
saido
san
sebastian
secundaria
sexos
sombras
stanford
suecia
surpreendeu
sustentar
terras
tira
tomada
tornando
trabalhado
transmissao
tratava
ultra
utilizando
vapor
variaveis
venda
vila
voa
zonas
##aa
##cados
##ceu
##cina
##cionados
##cionamos
##ctar
##dado
##dela
##eo
##gista
##grafica
##has
##ides
##ientes
##inhas
##iona
##ional
##ionar
##ividade
##lados
##lista
##macao
##micas
##mismo
##ndi
##ndido
##ntagem
##ntas
##olo
##osos
##otas
##pas
##pera
##posta
##quem
##rante
##rdam
##rega
##rgo
##ricos
##rito
##rrar
##sica
##tamente
##taram
##teis
##torias
##ty
##uir
##ulto
##unha
##ur
##vencao
##vis
##ws
##zou
160
32
99
acidentes
acompanhar
actividade
admitir
advogados
aeroporto
agricola
album
aleatorias
ambiental
andrew
ansiedade
anuncio
anuncios
aperceber
apoia
arquimedes
assegurar
astronomos
ativo
aviso
azuis
bosao
brincadeira
capitulo
caracteres
cardiaca
cerveja
cobertura
colagenio
comboio
come
congresso
cortes
crescem
criativos
cuidadosamente
curta
dancar
deem
desafiar
desconfortavel
descreve
desculpem
desenvolve
desigualdade
dezembro
diminui
divida
dividir
divisoes
doce
empresarios
encontros
entusiasmante
enviam
enviou
escapar
espelho
esperam
estara
estivessemos
estomago
estrangeiro
facamos
falava
falhas
filosofia
freespeech
garagem
generosidade
genetico
globalmente
graficos
gravar
holanda
ii
inglesa
inimigo
insetos
instantaneamente
lento
lesao
lobos
macaco
macacos
mandela
manual
margem
medicacao
medos
mel
merecem
milagre
minas
mk
monitorizar
montar
moralidade
mostraram
movel
mudado
multiplas
muro
musicos
nigeria
norma
normas
nucleo
nuvens
observacoes
oficial
orientacao
osso
ostras
otima
parceria
parem
pegada
perfil
permitam
pesquisar
piloto
poe
populares
portatil
porto
praca
preferido
procedimento
profundidade
promover
proporcao
queiram
receberam
revolucoes
salario
seguem
significativo
soar
sobreviventes
steve
subitamente
tanque
teia
tela
teorias
terror
terrorista
tomamos
tornamo
transportar
uniforme
usem
vermelhas
vermos
versoes
vertical
vinha
visualizacao
voltaram
##aveis
##avel
##bert
##bilizacao
##cadas
##cecoes
##cepcao
##ciosa
##dao
##deira
##ecem
##ecido
##eto
##fico
##gante
##iamente
##icamente
##ick
##id
##idez
##ig
##iram
##ive
##lacao
##mentar
##nacao
##namos
##nea
##ntando
##ol
##olar
##ong
##picos
##poem
##quia
##racoes
##rey
##smo
##ss
##ssao
##stica
##tante
##temos
##tima
##tores
##tua
##uam
##ubble
##upa
##velmente
##xa
2006
28
65
72
800
95
abuso
academico
acontecera
adivinhar
afectam
afetar
africana
agente
alturas
ampla
analises
andamos
animacao
aproxima
archie
assistencia
associada
atingiu
atividades
atrair
baby
basebol
basicos
bateria
beira
bordo
butao
camiao
canais
candidatos
caracteristica
center
cerebrais
charles
cientificos
classico
cliente
combate
comecando
comparar
conjuntos
conscientes
conseguiria
continuou
coreia
crescente
culpa
culpado
curioso
dando
darwin
declaracao
dedo
definir
demonstrar
desapareceram
desempenhar
desenvolveu
designer
deteccao
diriam
dispostas
distantes
divertir
dobrar
dominante
dono
dura
durar
duro
educar
eh
encontramo
entrega
eric
erradas
escaravelhos
escrevo
esqueletos
estacionamento
estilistas
estudamos
evidencia
evidentemente
evoluimos
externa
extincao
facilidade
faixas
falou
fechar
filmar
financiamento
fisicas
fizeste
fornecem
fotografo
funcionamento
gastos
gg
gigantes
gostariam
governamentais
habilidade
houver
ido
inacreditavel
incluem
independente
indiano
infinito
ingredientes
interaccao
investimos
israelitas
joel
lacos
lagrimas
lama
legislacao
lego
libertacao
libia
limitado
mails
mandar
marcar
maritimo
mata
matematicas
mecanismos
morrido
musicas
navio
neandertais
obcecado
objetivos
ocidentais
opinioes
ouvirem
pareciam
parlamento
participantes
partidos
pede
pensemos
perguntaram
perguntem
permissao
planeamento
polen
polio
poluicao
pop
possui
pratico
preocupam
prestar
prevenir
primordial
protegem
provem
puzzle
quanta
querida
querido
reagir
refeicao
refiro
registos
religiosas
reserva
restricoes
reunioes
sairem
satelite
saturno
segredos
segui
seguido
segurar
sentei
separar
significativa
significativamente
solares
soldados
solly
sonhar
suportar
surpreendentemente
taliba
tecnicos
telhado
tentou
texas
tipica
tornarmos
trabalhador
traduzir
transacoes
tubo
usavam
utilizamos
vaca
vasos
vasta
veneza
venham
venho
vias
viral
vistas
vivi
vulgar
##ac
##ad
##asta
##bado
##bria
##bu
##cemos
##ches
##ciais
##ciam
##cidas
##citacao
##ctor
##culares
##dador
##dez
##dicacao
##dificar
##eado
##ficas
##gacoes
##gadas
##gados
##gradaveis
##grafico
##ificados
##ionado
##ioso
##j
##jamento
##lhei
##line
##ling
##liza
##lizacao
##mbo
##mita
##mite
##mizar
##ncada
##ndiam
##nhecam
##nizacao
##om
##ones
##parou
##peita
##per
##plicacao
##rativos
##ridas
##rimos
##ritas
##rno
##rosa
##sado
##siste
##sumo
##tacoes
##teral
##terapia
##tificacao
##tivel
##tizacao
##tuais
##uca
##udir
##uidas
##uista
##ulo
##vemos
##wn
##zas
1998
600
accoes
aceite
acontecia
acordar
acrescentar
advogado
afro
agenda
agosto
agradecer
airbnb
alimentares
arabia
argumentos
atingem
atirar
ativista
aventura
bandeira
bicicletas
biodiversidade
biologica
britanica
calcas
cheias
circuito
circular
circulos
citacao
co
coletiva
colocam
comparem
complicadas
compra
confortavel
conhecidas
conseguido
considerem
construiram
cooperacao
copiar
credibilidade
criador
criados
criatura
culturais
curiosa
curvas
daf
dava
densidade
denso
desaparece
descreveu
desejava
desejos
desenvolveram
desespero
designs
diabo
dirao
diretora
dirigir
disciplina
discussoes
duplicar
duracao
duvidas
ebola
educativo
elefantes
eletrico
eletricos
emocionalmente
engracado
enigma
ensaio
equacoes
escolhi
escondidas
escreve
esperma
espiral
esquecam
essenciais
estatuto
estima
estranhas
extraordinarios
famosa
fases
favorito
faziamos
fechado
ferro
ficado
fizerem
focados
formou
fraca
fumar
furacao
futuros
gabby
gama
ganhamos
gasta
gasto
gera
glass
gratuita
haviam
hidrogenio
ilegais
iluminacao
imediata
indice
inovadores
inovar
integracao
integrar
intencoes
interaccoes
investimentos
juntamos
kansas
largura
leitor
levamos
liderar
liquido
machos
malas
manuscrito
merece
mobilidade
modernas
modos
montanhas
morais
mortal
multa
nacionais
nalguns
nojo
obama
of
ombro
onu
optimista
oscar
ostra
pagam
pagamento
panico
paradigma
partilham
pausa
pegarmos
percebeu
perdas
perdem
perseguir
pertence
pescoco
ponham
pontas
praticar
preferidas
premios
previsoes
prisoes
privada
procuram
protege
psicologia
puderam
pusemos
puseram
queira
queridos
quimicas
raciocinio
re
reboque
recolhemos
relacionado
relacionar
renovavel
reproducao
resolve
respirar
responsabilidades
resume
saco
sairam
school
seco
secretaria
sentiu
setor
significar
silicone
singapura
sucedida
suponho
tatuagens
teto
tijolo
traicao
tratado
trouxeram
tumores
uber
unir
urbanizacao
usarem
utiliza
variacoes
versus
vindos
viveu
##age
##aia
##ak
##amentos
##ano
##ave
##bina
##bras
##ccionar
##chem
##cias
##cidos
##culas
##cy
##dam
##delidade
##duz
##eu
##ficada
##ficou
##forme
##gal
##hado
##he
##iais
##ic
##ilar
##into
##ion
##itado
##itaria
##ixa
##jado
##jos
##ker
##ky
##lera
##lido
##liquei
##lma
##luente
##luentes
##mada
##mentacao
##nciais
##neses
##net
##nhar
##nimo
##nina
##nsivel
##oa
##ood
##osas
##parada
##paradas
##paramos
##pica
##pico
##pio
##postas
##ptar
##rade
##rantes
##ravam
##rego
##riado
##rra
##sada
##sados
##sar
##taria
##ted
##teiros
##tendo
##tuar
##uado
##ud
##ultores
##umido
##una
##undir
##uns
##urado
##utivo
##utos
##ven
##veniente
##versao
##ville
##viu
##vou
##zinha
120
2014
404
55
700
abriu
activo
adequada
adicional
admira
adulta
afectar
aleatoriamente
alugar
amigas
ampliar
analogia
andado
anonimas
antibioticos
aposto
apresentam
artistico
atinge
atingido
aumentam
ausencia
autorizacao
avancos
babilonia
balao
basicas
baterias
belas
bitcoins
boston
botoes
brooklyn
cadeias
calcario
capa
categorias
certificado
cha
chegada
chocante
cientificas
cobrir
colaborar
colaborativo
coletivo
composto
compreendem
condutores
conexao
configuracao
congestionamento
consentimento
conservacao
constituicao
constroem
construidos
conteudos
contigo
continuei
contraste
convencido
coral
criativas
criticas
cuja
custar
dadiva
dadores
darem
deficiencias
deixado
dependendo
dependentes
desesperadamente
desligar
determinada
diagrama
diminuiu
diversos
divertida
durou
ecras
educadores
eleitoral
emocao
emocionais
encontrarem
energetico
enganar
ensaios
ensinaram
entendemos
entendimento
envelhecer
escritores
especificas
estimativa
estimulo
etica
europeus
evoluiu
exame
examinar
exato
expressar
facilitar
fascinado
fevereiro
fibonacci
ficando
figura
fingir
fornecimento
forum
fraco
franceses
fumo
fundamentos
gatos
general
glaciar
gore
grao
grecia
guiar
hemisferio
high
humor
impede
imperio
implica
impostos
inclui
independencia
indicadores
indicar
industriais
infecoes
iniciar
inteiramente
islao
jesus
joelhos
kit
lacuna
legado
levanta
linear
litros
lucro
maca
macho
mandarim
marcha
maria
mede
memorial
mencionei
meter
milhas
ministerio
multiplos
mutacoes
mutuamente
namorada
narrador
nascer
national
negativo
neuronal
neve
noruega
novembro
observem
ocorrer
orbita
otimas
outono
ouvem
ouviu
parada
paraiso
passeios
perigosos
permanecer
pete
piratas
pormenores
poster
prender
preocupado
preocupante
preservativos
primata
programadores
programavel
proteccao
proust
pspt
puder
puxar
razoavel
reacoes
receptor
regime
registar
retratos
ricas
sagrado
salvo
secreto
seringa
servem
simulacao
somalia
subida
surpreendido
surpreendidos
sustentaveis
temas
tenis
tercos
tipico
totalidade
tracos
trafego
transparente
unicas
utilidade
valioso
vencedor
vende
venha
verdades
vim
vinham
vitoria
viveram
viviam
vivido
watson
wikipedia
##12
##60
##ana
##antes
##at
##avam
##bar
##bram
##chi
##ciosos
##cs
##ctiva
##culam
##dacao
##dificadas
##dio
##diu
##duzidos
##dy
##ecida
##elandia
##era
##erente
##etas
##fas
##feitos
##fero
##gadora
##gais
##gan
##gava
##gh
##gida
##gimos
##gs
##guei
##hi
##idao
##ificado
##imentos
##ionamento
##isco
##istico
##izando
##ladas
##lem
##lheu
##lhou
##lismo
##llo
##lou
##ltrar
##men
##mera
##mes
##metros
##minacao
##minou
##naram
##niana
##nna
##ntendo
##ny
##ologico
##ope
##pete
##radores
##ravel
##reen
##regados
##rica
##ricao
##rismo
##rmar
##rnas
##ronto
##sadas
##samente
##sisti
##sou
##tamento
##tencia
##tentes
##tis
##tiveis
##tribuida
##ucao
##uem
##uilo
##ulados
##undo
##urei
##uros
##usa
##utiva
##veu
##vidar
##visivel
##ward
##xar
1970
38
abandonar
abertas
abracar
absorver
academia
acucar
aguentar
altruismo
ama
ambientais
and
aplicam
arn
associado
ativistas
atrai
atravessam
avc
baleia
baleias
barris
baseados
baseia
batedor
biologos
biotecnologia
bloquear
bob
bolsa
brancas
brian
brilho
brinquedo
brown
caca
cairo
cantos
caracter
casal
cave
cirurgias
codigos
cognitiva
colar
colocado
colocaram
coluna
comecem
companheiros
compara
comparado
compreendia
compreendo
comprei
comprimido
confiante
conseguisse
continentes
continuarmos
controle
convencional
correcto
corresponde
crimes
culinaria
custam
dano
decide
deitado
depender
desaparecem
destruida
detectar
diapositivo
diario
diversao
documentar
domingo
economista
eletrica
emocionante
encorajar
endereco
enfermaria
entusiasmo
envolvido
envolvimento
eolica
episodio
escondido
escrevem
escritor
escrituras
esferas
espaciais
espectro
estaremos
estimulante
estivermos
evidente
existiu
expectativas
falem
famosos
fator
favorita
femeas
feminina
fenomenos
fi
ficaria
filosofo
filosofos
fizessemos
forcar
fosso
fria
fruta
gado
gemeos
genio
globo
gravacao
habitat
habituados
hall
historicamente
honestamente
hormonas
horriveis
iamos
idiota
imediato
impressora
imunitario
in
influenciar
iniciou
inovadoras
inspirou
instalar
integrado
intencao
interagem
interessam
intervencoes
intuicao
israelita
jamais
jerusalem
jh
juiz
lampada
lata
lenta
levantou
licenciatura
limiar
limpeza
linda
lindamente
livrar
maluco
manuais
manuscritos
mares
mario
martin
mary
meados
mentalidade
metronomos
minusculas
minusculo
mostrando
movem
mudarmos
municipal
musculo
nadar
nasceram
nascido
nike
nu
observam
oficiais
oleo
olharam
ong
orcamento
orcamentos
oxford
pagamos
pago
pagos
palestina
paramos
parceiro
parto
passavam
passear
pedem
peito
perfuracao
perfurados
permitido
pilhagem
piramide
pirataria
prato
precedentes
preencher
preferida
preferidos
preocupados
preocupem
preparacao
prioridades
privados
progredir
projetar
pronta
propriamente
proteses
provocar
publicacao
pulmoes
pulso
pus
quebrar
quinto
radicais
rainha
reconhece
reconhecem
referi
reproduzir
resiliencia
resistentes
ressonancia
restaurantes
reuniao
sabermos
sabor
saia
salva
sec
secular
senso
sentiam
sentou
sinapses
sindrome
soldado
ss
sub
subiu
substancia
superar
surpreendentes
tbp
telefones
telhados
tempestade
tempestades
termica
terrenos
territorio
tia
tomam
tradutor
transdutor
universitario
universitarios
urbana
urbanos
usarmos
usava
utilizam
vencedores
violacao
visitantes
visitas
vizinho
voltam
votos
william
##abilidade
##adamente
##adores
##ama
##atinho
##bido
##bro
##cedente
##chos
##cidades
##cionadas
##cita
##cre
##cricoes
##ctado
##ctores
##curo
##cutem
##dada
##dadores
##dados
##diano
##eceu
##ema
##eram
##ero
##este
##esto
##fazer
##fere
##ferencia
##ff
##ficacao
##forcar
##gamos
##gancia
##gidos
##gressao
##gua
##guidade
##heira
##hem
##icada
##icar
##iedade
##ilares
##ine
##ionais
##ique
##isse
##issoes
##ity
##lie
##lim
##lon
##lui
##mao
##mer
##mistas
##ncamos
##ndeu
##ndidas
##nem
##nn
##ntal
##ose
##pad
##parado
##perado
##pido
##pleto
##plificar
##pus
##ques
##raccao
##rativa
##ressivo
##riais
##ribuicoes
##ridade
##rina
##rita
##rn
##rus
##sam
##sistencia
##sivos
##stantes
##sto
##tel
##tencao
##tensa
##tetor
##tiam
##tidao
##tintos
##tir
##tras
##tria
##uagem
##udicial
##ugas
##uidade
##uimos
##ulina
##ulos
##uncao
##up
##ut
##utar
##vada
##viar
##visiveis
##wer
##xico
##ya
1900
1945
1999
86
aborto
actor
adam
adequado
adquirir
agencia
agricolas
aguas
aldeias
aleatoria
alemao
alerta
amplitude
ancestral
andei
antartida
apaixonado
apercebemo
apercebemos
aplicamos
apropriado
armadilha
asas
asiatico
assusta
astronautas
atomo
atuais
autoridade
autoridades
avancado
baixas
bar
barbearia
betao
biologico
biologicos
brilhar
cachorro
caem
cairam
cantores
carrinha
casais
catedral
cegas
cenarios
cereais
chamei
chile
chimpanze
chimpanzes
city
clinicas
cochrane
coleccao
comerciais
comissao
comportamental
composicao
computacional
concordar
conferencias
confortaveis
confusa
conor
conservadores
consideracao
consideramos
consiga
consomem
construindo
contente
contentores
costumavamos
criadas
criticos
cumprir
dan
decorrer
definitivamente
deixava
deixo
dependem
desapareceu
desce
descobrem
desenvolvidos
desflorestacao
diagnosticos
diminuicao
director
direto
dirige
distincao
distribuido
dvd
electricos
elevados
emite
encontrava
enfrentam
ensinada
entes
equilibrar
equipas
escalas
escritas
espanha
esperto
espetaculo
espiritual
esquecemo
esquina
estadio
europeu
evan
ex
excecao
exponencialmente
expostos
faciais
falemos
fantasticos
fara
faremos
feminino
fezes
ficara
ficarmos
filadelfia
filhas
finais
fique
fita
flui
foie
formula
forno
friccao
frigorifico
funcionario
galinha
gases
gerais
germes
giro
glaciares
gradualmente
gras
gratuitamente
gravado
graves
guardas
guitarra
habilidades
habito
hamburguer
harmonia
heforshe
henry
hoteis
hp
humanitaria
identicos
ilustrar
impactos
implementar
imprimir
indica
inferno
informatico
infra
inquerito
inspirado
instinto
ironia
isolamento
jane
jean
jennifer
jiade
julho
juntaram
juntem
lentes
levei
liberal
liberta
maio
mantido
manutencao
mark
matou
mecanicas
melhora
mencionar
mesas
min
missouri
modulo
moldura
mosquito
museus
nascem
nascemos
neandertal
negacao
objectivos
obtive
obtivemos
ocorrem
ocupar
odisseu
open
oposicao
orelha
origens
ouco
outubro
pacifico
paixoes
parasita
partilhados
passageiro
passarem
passaro
pedidos
pensando
perigosa
piso
pontes
positivas
postos
precisas
predio
pretos
probabilidades
produtores
produzido
proibicao
projecoes
propor
proporciona
protegidas
protese
prototipos
publicado
publicou
qualidades
quebra
queijo
quilos
quisemos
quotidiana
ramo
rb
reaccao
reator
recife
relacionamentos
relva
remoto
resolvido
retiramos
revela
revelacao
rodar
sanguineos
sarah
sector
sectores
sedas
selecao
selva
selvagem
sepultura
seriamente
sessao
sexualmente
significam
sinceramente
slide
sofre
solucionar
sotaque
stop
sucedidos
surgem
surpreender
sydney
tedtalk
tende
tendemos
tipicamente
tiram
to
tornem
tradicionalmente
transformam
trinta
tunisia
uganda
ultrassonografia
urgente
ushahidi
vagas
van
viajei
vinho
virtude
vital
vulneravel
##40
##agem
##anal
##anca
##anico
##aria
##bais
##bao
##bida
##burgo
##carga
##carregar
##cionam
##ciono
##cios
##corre
##corremos
##creto
##ctados
##culacao
##curso
##den
##dente
##dentes
##dica
##eca
##eda
##eia
##eito
##ens
##entar
##entes
##esse
##etico
##feicao
##ferir
##ficado
##ficio
##ficos
##fiquem
##fuso
##genese
##ght
##gra
##grada
##gular
##hamento
##iana
##icao
##ice
##ies
##ifica
##ificacoes
##ificada
##ilas
##imizar
##inacao
##inar
##inio
##ioes
##ioneiro
##itario
##ixar
##izador
##izadores
##izem
##josa
##jou
##ki
##king
##ks
##landia
##lhos
##liam
##lida
##lio
##logico
##logicos
##lta
##luidos
##mante
##metria
##modar
##move
##mular
##nald
##ncam
##ncha
##ncias
##ndade
##ndioso
##neos
##nhou
##ni
##nida
##nios
##nja
##njo
##nny
##nomo
##oga
##ons
##op
##orda
##patia
##perada
##presente
##pressivos
##presso
##primir
##pse
##pta
##quecer
##ramo
##raneo
##rdamos
##rdar
##reiro
##remos
##ribui
##ricas
##ril
##rindo
##ring
##rinha
##rk
##rmou
##ruta
##rva
##sario
##sivel
##stem
##tarem
##tias
##timento
##tiu
##tracoes
##trina
##trito
##uida
##uido
##ulacoes
##umimos
##undar
##unitaria
##urou
##util
##utivos
##utor
##vais
##vidos
##vidou
##voca
##watts
##xas
##yan
##zem
##zer
1950
1984
1990
2003
2016
4000
5000
abismo
abril
abrimos
absoluta
absurdo
abundante
aceitou
aceleracao
adoram
afectadas
agrupamentos
alargar
alarme
alimenta
alimentam
andamento
anel
aonde
aplicada
aprenderem
apresentou
arcos
argentina
arredores
asfalto
assistente
atlantico
atos
atraente
atrasar
automatico
avaliacoes
baratas
basquetebol
bateu
bell
beneficio
bonitas
bonitos
bruno
cacadores
calorias
campanhas
cancros
caneta
capturar
caridade
carnegie
carteira
casamentos
causou
cega
celular
centimetros
chefes
cheios
chocolate
classificacao
cobra
codificador
coelho
colocamo
colonias
coloquei
colunas
coma
comecava
compreende
comunicacoes
conclusoes
condicionado
conduz
conectomas
conseguiremos
conseguiriamos
conseguissem
consigam
contam
conter
contribuicao
controla
conversamos
convincente
copo
corredor
correm
correntes
corria
cosmos
cranio
criarem
criarmos
curiosos
daisy
daniel
davam
decimo
define
definido
democratica
desastres
desenvolvida
determina
deuses
dh
diego
diplomacia
disposicao
dissesse
dissessem
divulgar
domingos
dopamina
doze
egoista
el
emails
emma
empenhados
empolgante
encaixar
engenheiro
engenho
entrevistas
entusiasmados
envolvida
equipamentos
escadas
escolares
escravos
escritora
esfera
espanhol
esperancas
esquecemos
estigma
estudado
estupida
excelencia
exigencia
exigencias
existente
existisse
explodir
explosoes
extrovertidos
faiza
falarem
falavam
fale
falhou
familiarizados
fantasia
farao
farmacos
fechados
filtro
fins
fizessem
foguetao
fragil
funcionaria
funcionava
futuras
galeria
garrafa
gelado
genocidio
governacao
graffiti
gramatica
guine
habitacao
habitats
hardware
historica
hiv
homicidio
honestidade
hormona
humanitario
idades
importam
importar
incidente
independentes
indonesia
inesperado
iniciais
iniciamos
iniciei
inovador
inter
interacoes
interessar
interruptor
intrigante
introducao
introduzir
inventor
iriamos
islamico
italia
johnny
joshua
judeu
julgo
juntou
jupiter
justa
lamina
laser
lealdade
leu
liberais
liberia
licenca
lidam
lido
littlebits
long
manteve
mantiveram
margens
medicoes
mestres
mestria
meta
metas
microsoft
migracao
mito
mm
mohammed
musicais
namorado
naquelas
neurociencia
ninho
nl
nodulo
nutricao
obvia
on
ongs
organica
orgulhosa
oriental
otimismo
otimista
ouvia
parecidas
passeio
passiva
pensavamos
percebam
percebo
performance
perigos
periodos
peticao
pilha
piscar
piscina
placas
pleno
polarizacao
policias
pontape
posse
posto
precisos
precoce
previsto
privadas
procedimentos
procurem
progressos
publicamos
puderem
pulmao
quadros
quintas
quisesse
rapidas
raro
rastreio
realidades
realizacao
recebido
recebo
reconstrucao
recordo
redencao
reduzem
regioes
relatorios
repararam
reparei
reside
resistente
respondi
resumir
retrato
reverberacao
revisao
rezero
rotina
roubo
sabado
salao
sandy
seducao
sensibilidade
senta
sentiram
silenciosa
similares
simpatico
south
sp
storycorps
suave
subtis
sugeriu
suicida
surpresas
telefonicas
temperaturas
tentado
tentarem
tentativas
tentem
termina
terminado
testamos
testemunhar
tigre
tim
tintas
tiro
tiroteios
tita
tomou
trabalharam
trafico
tragico
trauma
traumatico
treinador
trivial
trocas
tsunami
unidimensional
urgencia
ursos
utilizada
vendedor
veriamos
verme
vinculo
vindas
vinte
vivian
voltarem
yale
##20
##47
##79
##aes
##ah
##ai
##ala
##ap
##are
##bbie
##bc
##bel
##ber
##berto
##bidas
##bor
##bs
##cei
##cher
##cistas
##colos
##consciente
##crevam
##damos
##del
##dicoes
##die
##dou
##dre
##eada
##ecta
##entou
##eografia
##erco
##erou
##ert
##estima
##etrica
##fada
##ferencias
##fia
##fiam
##ficados
##gao
##gente
##gicas
##giu
##gor
##grafa
##grafo
##gram
##grante
##guer
##hecida
##hei
##heiros
##ian
##iano
##ibido
##ientar
##ife
##ilacao
##ilo
##imas
##imento
##inada
##inuem
##ionou
##iosa
##isa
##isca
##itico
##itorio
##ivelmente
##ixe
##izavel
##izo
##jada
##josas
##ko
##lando
##lao
##lay
##leira
##lencia
##listas
##low
##mart
##mm
##moes
##ncar
##nchas
##ndado
##ndencia
##netico
##nfiamos
##nge
##ngimos
##ngulo
##niano
##nicas
##nks
##ntados
##ologos
##oma
##ora
##ossa
##oy
##pacao
##pado
##pam
##peito
##pensa
##peram
##pito
##plante
##ponho
##posicao
##pressao
##pressoes
##primido
##primidos
##quadra
##quatico
##quecido
##quisitos
##rco
##rdados
##rde
##recidos
##red
##regado
##ressivas
##riamos
##ribuem
##ributo
##rigar
##rime
##rizacao
##rrado
##rte
##ruz
##sento
##sina
##sistiu
##siveis
##sola
##somas
##specao
##stam
##stavel
##suasao
##sura
##tadora
##tativas
##tear
##terna
##testo
##tingue
##tissimo
##tizado
##toes
##traccao
##triz
##tter
##uamente
##udos
##ulta
##unde
##une
##unitarias
##uracoes
##urada
##utou
##vei
##venientes
##verte
##vertidos
##viam
##viei
##volucionaria
##way
##xao
##xia
##zado
##zo
1989
29
3000
31
abastecimento
abrigos
acampamento
aceitavel
acordos
adaptacao
adicionamos
admiracao
admirar
adora
adorei
afetadas
agradeco
agricultor
ajustar
alex
amamos
amava
ambicao
amizade
amplamente
andarem
andares
ando
angulos
anual
apanhei
aparecia
apartamentos
aposta
aprendido
apresento
aproveitamento
artico
artificiais
artistica
assinatura
assistimos
ativismo
atlanta
autenticidade
autismo
avancando
aventuras
bailarinos
barriga
bastantes
batalhas
bate
bencao
boltzmann
brevemente
bronx
bruto
campus
carol
casaco
casca
cash
castanha
causado
celebrar
ceo
cerne
chapeu
chegarmos
chover
cidadania
circulacao
cobre
colecao
comando
compreendi
comprometer
conduziu
confiantes
conforto
conseguiamos
conseguirei
consigamos
conspiracao
constroi
construcoes
consumir
continuando
contrair
contrariamente
controversa
corredores
corremos
corri
criterios
cruel
cubo
cultivamos
curiosamente
curtas
dadas
dali
deixadas
deixando
democratico
demonstram
dental
descrevi
desejamos
desenvolvi
desertos
destacar
detecao
dever
diagnosticar
dicionario
directo
disparo
distancias
distribuir
dividida
dominar
duras
ed
edicao
emergente
emprestimos
encolher
encontrarmos
enfim
enganados
entidade
entregar
entrevistar
enviado
enzimas
escolhem
escolhido
escrevemos
espada
espalha
espelhos
espertos
espreitar
estavel
estocolmo
estuda
eus
evita
evoluiram
exatidao
exilio
exista
experimental
externos
fabricante
factor
falado
falarmos
falecido
fda
federal
feiras
fenix
festas
ficavam
figado
financeiras
flexiveis
fluido
flutuacoes
flutuar
folha
forcado
fornece
fossil
fotografar
frequente
funcionavam
gaiola
ganharam
ganhei
gch
geram
girar
gordos
gowanus
graos
grata
gratuito
gravada
gritos
habitantes
harry
heroi
hollywood
holmes
honduras
honestos
horarios
humilhacao
imagino
imitador
implacavel
impor
improvavel
impulso
inclinacao
inclusao
infecao
iniciativas
inovadora
inspirados
intangivel
inteiras
interessada
interno
interpretar
inventado
iranianos
isolado
jr
lampadas
larvas
law
lee
lerem
limitadas
limitar
livremente
lobo
logistica
loucas
magnetica
magnifico
maliciosos
mandei
manhas
maravilhas
marduk
mare
maridos
mecanicos
medimos
meias
membrana
menores
merda
mergulhar
milenio
milimetro
mineiros
minima
moldar
mos
mr
municoes
nano
narracao
nasce
navegador
negociacoes
nervosos
notaveis
ocasiao
ocde
oculos
ocupados
ombros
oposta
oracoes
org
originalmente
oucam
ovos
paisagens
panorama
papeis
paralisia
parcial
parei
parti
peguem
perdao
personalizada
perspetivas
persuadir
pesa
pesado
pesquisas
pesticidas
picos
poeira
policial
polinizacao
politicamente
potenciar
preferem
premissa
presidentes
preta
prima
primas
problematico
projecao
prontas
prosperar
proto
provou
quantia
quintal
quisessem
radicalmente
ramificacoes
ramos
rara
reabilitacao
receio
recessao
recolha
reconciliacao
recorde
recuar
reduz
referir
reflete
reflexao
reformar
regularmente
relacionamento
religiosos
relogio
repensar
reporteres
representado
reuni
rever
rodeia
rumo
saberem
salvou
sarajevo
seguindo
seguiram
seguiu
seleccao
sentimo
separados
sequenciar
series
sexy
sintam
sistematicamente
skype
smartphone
smith
sobe
source
sozinhas
sra
subsariana
suica
suicidas
supermercado
suricatas
tanques
tanzania
teerao
templo
terrestres
testa
tirou
tolerancia
trabalharem
travar
trazem
trazido
tremendo
tribo
tristeza
tropical
tubos
tweets
ubuntu
urso
usamo
valem
valer
valorizar
veja
verifica
verificamos
vestido
vestir
vietname
violentas
virou
visitei
voyager
xviii
yr
##13
##76
##97
##ace
##acto
##adora
##amo
##arda
##arem
##ario
##ato
##au
##ava
##bados
##bam
##bas
##bear
##beis
##bemos
##bidos
##ble
##bos
##brado
##brei
##bul
##bulosa
##bus
##bustos
##canico
##cendente
##certo
##chas
##chetes
##ciamos
##cinio
##cker
##ckers
##cks
##cky
##clamar
##clusivamente
##colo
##cone
##corrido
##ct
##ctivos
##cusado
##cusaram
##diar
##dicada
##din
##ducao
##ducoes
##duras
##dutivo
##duzir
##eas
##ecada
##eficiente
##elhar
##enda
##entamos
##eria
##esimo
##eticos
##eza
##far
##fasta
##ficam
##filia
##finimos
##gi
##gicamente
##gitimo
##givas
##giveis
##graficos
##grama
##gregacao
##hados
##hamos
##han
##hecido
##heiro
##hentos
##hido
##icano
##icia
##iciais
##ificadas
##igo
##ilde
##inossauro
##ionada
##irem
##ivamente
##jados
##lares
##lda
##len
##less
##liamos
##licou
##lidades
##ligadas
##ligado
##ligiosa
##linear
##linio
##lis
##lizado
##lizados
##lizando
##loco
##loga
##lorado
##ludo
##luido
##lvam
##lvia
##madas
##mado
##manes
##medio
##meia
##mem
##metica
##mina
##mocao
##ncoes
##ndes
##ndou
##nente
##nga
##nhei
##nias
##nicao
##nimados
##nimento
##nizar
##nrolar
##nsa
##ntagens
##ntamente
##ntanea
##ntaria
##ntario
##ntica
##ntistas
##nunciar
##onico
##peradas
##perativo
##pes
##petem
##petitivo
##ph
##piracoes
##plica
##plicidade
##polar
##polis
##posicoes
##prudencia
##ptica
##pto
##ptou
##quecem
##queta
##quez
##queza
##quim
##quisito
##ransporta
##raram
##rativo
##ratos
##rdia
##recia
##resca
##ressa
##restre
##riada
##rificios
##riga
##rigo
##rimento
##ritante
##rma
##roject
##rometeu
##rosao
##rosas
##rram
##rri
##rriam
##rro
##rt
##rtar
##scado
##sco
##simo
##sionou
##sista
##sistem
##sistimos
##sivas
##solada
##st
##stao
##stres
##struido
##sumem
##taca
##tantes
##tenso
##than
##ther
##ticada
##tificar
##tituicao
##tiza
##trado
##trados
##trao
##tribuir
##trica
##trizes
##trou
##tu
##tural
##ub
##uel
##uge
##uina
##ulam
##und
##undacoes
##undem
##unes
##ung
##unhado
##unho
##unidade
##upado
##urrar
##ustin
##usto
##utores
##utura
##ux
##vacoes
##vente
##vento
##versais
##vertido
##vias
##vin
##visas
##vite
##volucionario
##vula
##well
##xe
##xos
##zinho
##zz
1980
1991
1995
2002
54
64
96
abordagens
academicos
accenture
aceita
aceitei
aceito
acertar
achas
acolher
acolhimento
aconteceram
acordamos
activa
acustica
adaptar
adeus
adoraram
afecta
afetado
afirma
agarra
ajudem
ak
alcool
alema
aliados
alivio
alterado
altruistas
amazon
ambulancia
amem
aminoacidos
amplo
anfitriao
animada
anjos
anunciou
apanha
aparecerem
aparecimento
apoiamos
aponta
apostar
aprendam
aprofundar
aquecer
armados
armazem
armazenamento
arquitetos
arrancar
arterial
assinar
associacoes
associados
atitudes
atleta
atores
atrasado
atributos
audicao
autentico
autistas
autonomia
autorais
avancados
bali
bandas
baralho
barra
ben
beneficiar
bilhoes
bimetal
bocados
bolsos
bombeiros
bonica
boom
bush
cabe
cascata
catastrofe
catolica
causam
celebridades
cessar
chamem
chegado
chegaremos
chernobyl
cintura
cinzenta
cinzentos
claros
coberta
cognitivos
coincidencia
colheitas
colher
colisao
colocadas
colocarem
colocarmos
coloquem
comboios
comecarem
cometer
companheiro
competencia
compor
comportar
compressao
comprou
comunicam
comunitario
conceber
concentracao
concertos
concorrentes
concursos
conduzem
conquistas
conscientemente
consideradas
contabilidade
contemporanea
controlam
controversia
conveniencia
converter
convidados
coracoes
corda
correta
corretamente
cortaram
costume
crescemos
cresceram
crescido
crias
cronica
curador
danificados
deixados
deixarem
deixarmos
demasiada
demonstra
deparei
deriva
descobre
descrevemos
descrito
desculpas
desejam
desenhei
desfrutar
despertar
destrocos
destruiu
devolver
diabetes
diagnosticado
diarias
diarios
dignos
dir
direcoes
direta
discriminacao
disparar
disturbio
divide
divulgacao
doador
donna
drasticamente
duram
electrica
electrico
electronica
eletroes
eletronicas
elevar
embarcar
encontravam
ensinado
entende
envolvem
envolvente
ervas
escolhe
escrevia
escuta
especificos
espectaculo
espetro
espinal
esqueci
estagio
estatais
estejamos
estilos
estrangeiros
estrutural
estudou
estufa
etapa
existirem
experimentei
exponenciais
extraordinariamente
extraterrestres
fabricar
fabrico
faixa
falantes
falaram
fardo
farmaceutica
fas
favelas
favoritos
fazemo
fechada
feridas
filas
financiar
flexibilidade
florida
fluorescencia
foste
fragmentacao
fraude
frequencias
fuga
fugiram
gandhi
ganharem
generosa
gere
golfe
governar
gravidez
habituais
hal
hannah
hierarquia
historicos
homossexual
honesta
honesto
hudson
imagina
imaginei
imitar
importava
impressionantes
impressos
impulsos
inclusiva
inclusive
indigenas
infantis
infinita
informal
inserir
instrucao
integridade
interativo
interligados
interseccao
invasao
inventores
invulgar
ironicamente
irrigacao
isolar
jb
jeff
jornalismo
josh
juntarem
kennedy
kepler
lancado
leiam
leio
leoes
lesoes
levando
levantam
leves
lidamos
ligamos
ligarem
limitacao
limitada
limitados
liquida
localizar
lolcats
longevidade
longos
lutamos
macas
mantemos
mantenham
maome
maravilhosos
masculino
maslow
matriz
maxilar
medicas
mestrado
meteorologicos
mexicanos
mike
milenios
milha
minimamente
minoria
morre
motiva
mudaria
multi
mundialmente
musculos
necessitamos
nervo
neutro
newton
nodulos
noiva
notar
notei
objetiva
observa
observarmos
obsessao
oms
opep
ordens
orelhas
organicos
organizadas
origami
ossea
ouvida
parado
parcerias
parecida
passageiros
passivamente
percebido
perigosas
peritos
permitindo
permitiram
personalizados
pesca
piadas
pinta
pioneiros
plasma
poco
pomos
porcaria
pornografia
portal
poupam
pouso
preparado
pretende
processador
procurando
produzimos
programador
propinas
propulsao
prosseguir
protestos
publicados
puro
quarteirao
queima
queimar
racismo
recifes
reduzida
reflexo
registado
relevantes
religioso
residuos
resolvidos
responderam
resultar
retira
reunimos
revelou
ri
robert
rock
roger
rosetta
rv
saberao
salarial
salarios
saltos
sanitas
satisfacao
seguidos
selvagens
sensiveis
seta
sexting
significou
silencioso
simpaticos
simultaneamente
smartphones
socialmente
sofa
solidariedade
solido
solteira
sonora
sorriso
sovietica
stephen
stewart
stuxnet
subjacente
substituicao
sucedido
sujeitos
supostamente
surpreende
suspenso
sustenta
tabela
taca
tailandia
taskrabbit
tecnologico
templos
testemunha
testemunho
textura
tirando
tk
tomaram
tomates
tomei
tomem
topicos
trabalhando
trabalhou
transferir
tratados
tremer
tripulacao
tubaroes
ucrania
up
vazios
vegetal
vendem
vendidos
verbal
vinci
virginia
viria
virtuais
visiveis
vissem
vivam
vocais
voltaria
voltemos
volto
zangado
zoom
##!
###
##$
##%
##&
##'
##(
##)
##*
##+
##,
##-
##.
##/
##:
##;
##=
##>
##?
##@
##[
##\
##]
##^
##_
##`
##q
##©
##«
##°
##»
##ย
##ร
##อ
##–
##—
##‘
##’
##“
##”
##⁄
##€
##♪
##♫
